TRT-8601-EntropyCalibration2
input: 3c04b5aa
/0/backbone/stem/conv/rbr_reparam/Conv_output_0: 3e0611d7
/0/backbone/stem/conv/nonlinearity/Relu_output_0: 3e182b84
/0/backbone/stage1/downsample/rbr_reparam/Conv_output_0: 3e3e167d
/0/backbone/stage1/downsample/nonlinearity/Relu_output_0: 3e395939
/0/backbone/stage1/blocks/conv1/conv/Conv_output_0: 3e41ea5b
/0/backbone/stage1/blocks/conv1/act/Relu_output_0: 3d933902
/0/backbone/stage1/blocks/bottlenecks/bottlenecks.0/cv1/rbr_reparam/Conv_output_0: 3de913e9
/0/backbone/stage1/blocks/bottlenecks/bottlenecks.0/cv1/nonlinearity/Relu_output_0: 3da738b7
/0/backbone/stage1/blocks/bottlenecks/bottlenecks.0/cv2/rbr_reparam/Conv_output_0: 3ddf4b87
/0/backbone/stage1/blocks/bottlenecks/bottlenecks.0/cv2/nonlinearity/Relu_output_0: 3dd3fe33
(Unnamed Layer* 10) [Constant]_output: 39b0892c
(Unnamed Layer* 11) [Shuffle]_output: 39b0892c
/0/backbone/stage1/blocks/bottlenecks/bottlenecks.0/Mul_output_0: 3b496979
/0/backbone/stage1/blocks/bottlenecks/bottlenecks.0/Add_output_0: 3d5ad4a9
/0/backbone/stage1/blocks/bottlenecks/bottlenecks.1/cv1/rbr_reparam/Conv_output_0: 3d90a9ce
/0/backbone/stage1/blocks/bottlenecks/bottlenecks.1/cv1/nonlinearity/Relu_output_0: 3d74d3c7
/0/backbone/stage1/blocks/bottlenecks/bottlenecks.1/cv2/rbr_reparam/Conv_output_0: 3df45318
/0/backbone/stage1/blocks/bottlenecks/bottlenecks.1/cv2/nonlinearity/Relu_output_0: 3dda413b
(Unnamed Layer* 18) [Constant]_output: 39df3b4c
(Unnamed Layer* 19) [Shuffle]_output: 39df3b4c
/0/backbone/stage1/blocks/bottlenecks/bottlenecks.1/Mul_output_0: 3b3d4877
/0/backbone/stage1/blocks/bottlenecks/bottlenecks.1/Add_output_0: 3d720213
/0/backbone/stage1/blocks/conv2/conv/Conv_output_0: 3e5cd7ef
/0/backbone/stage1/blocks/conv2/act/Relu_output_0: 3dd9f41c
/0/backbone/stage1/blocks/Concat_output_0: 3da17192
/0/backbone/stage1/blocks/conv3/conv/Conv_output_0: 3e0c76c6
/0/backbone/stage1/blocks/conv3/act/Relu_output_0: 3de16be1
/0/backbone/stage2/downsample/rbr_reparam/Conv_output_0: 3dd01d45
/0/backbone/stage2/downsample/nonlinearity/Relu_output_0: 3db0ef4d
/0/backbone/stage2/blocks/conv1/conv/Conv_output_0: 3d6688e3
/0/backbone/stage2/blocks/conv1/act/Relu_output_0: 3d39eff7
/0/backbone/stage2/blocks/bottlenecks/bottlenecks.0/cv1/rbr_reparam/Conv_output_0: 3db1be32
/0/backbone/stage2/blocks/bottlenecks/bottlenecks.0/cv1/nonlinearity/Relu_output_0: 3d7230c6
/0/backbone/stage2/blocks/bottlenecks/bottlenecks.0/cv2/rbr_reparam/Conv_output_0: 3d59a0fb
/0/backbone/stage2/blocks/bottlenecks/bottlenecks.0/cv2/nonlinearity/Relu_output_0: 3d35c2a9
(Unnamed Layer* 35) [Constant]_output: 3bc69c81
(Unnamed Layer* 36) [Shuffle]_output: 3bc69c81
/0/backbone/stage2/blocks/bottlenecks/bottlenecks.0/Mul_output_0: 3d0f17d1
/0/backbone/stage2/blocks/bottlenecks/bottlenecks.0/Add_output_0: 3d3f9e90
/0/backbone/stage2/blocks/bottlenecks/bottlenecks.1/cv1/rbr_reparam/Conv_output_0: 3db7984f
/0/backbone/stage2/blocks/bottlenecks/bottlenecks.1/cv1/nonlinearity/Relu_output_0: 3d77192e
/0/backbone/stage2/blocks/bottlenecks/bottlenecks.1/cv2/rbr_reparam/Conv_output_0: 3d9e74b4
/0/backbone/stage2/blocks/bottlenecks/bottlenecks.1/cv2/nonlinearity/Relu_output_0: 3d902863
(Unnamed Layer* 43) [Constant]_output: 390d40d3
(Unnamed Layer* 44) [Shuffle]_output: 390d40d3
/0/backbone/stage2/blocks/bottlenecks/bottlenecks.1/Mul_output_0: 3a51c1ac
/0/backbone/stage2/blocks/bottlenecks/bottlenecks.1/Add_output_0: 3cb7d72c
/0/backbone/stage2/blocks/bottlenecks/bottlenecks.2/cv1/rbr_reparam/Conv_output_0: 3d914b19
/0/backbone/stage2/blocks/bottlenecks/bottlenecks.2/cv1/nonlinearity/Relu_output_0: 3d5a8257
/0/backbone/stage2/blocks/bottlenecks/bottlenecks.2/cv2/rbr_reparam/Conv_output_0: 3d9fb9bf
/0/backbone/stage2/blocks/bottlenecks/bottlenecks.2/cv2/nonlinearity/Relu_output_0: 3d98428a
(Unnamed Layer* 51) [Constant]_output: 38eb1c93
(Unnamed Layer* 52) [Shuffle]_output: 38eb1c93
/0/backbone/stage2/blocks/bottlenecks/bottlenecks.2/Mul_output_0: 39a77ae6
/0/backbone/stage2/blocks/bottlenecks/bottlenecks.2/Add_output_0: 3d492eed
/0/backbone/stage2/blocks/conv2/conv/Conv_output_0: 3db8e21b
/0/backbone/stage2/blocks/conv2/act/Relu_output_0: 3d86b2cd
/0/backbone/stage2/blocks/Concat_output_0: 3d492eed
/0/backbone/stage2/blocks/conv3/conv/Conv_output_0: 3dadce51
/0/backbone/stage2/blocks/conv3/act/Relu_output_0: 3dadce51
/0/backbone/stage3/downsample/rbr_reparam/Conv_output_0: 3d98645e
/0/backbone/stage3/downsample/nonlinearity/Relu_output_0: 3d88bac6
/0/backbone/stage3/blocks/conv1/conv/Conv_output_0: 3d0a67cd
/0/backbone/stage3/blocks/conv1/act/Relu_output_0: 3d0a67cd
/0/backbone/stage3/blocks/bottlenecks/bottlenecks.0/cv1/rbr_reparam/Conv_output_0: 3d575690
/0/backbone/stage3/blocks/bottlenecks/bottlenecks.0/cv1/nonlinearity/Relu_output_0: 3d37aa27
/0/backbone/stage3/blocks/bottlenecks/bottlenecks.0/cv2/rbr_reparam/Conv_output_0: 3d305764
/0/backbone/stage3/blocks/bottlenecks/bottlenecks.0/cv2/nonlinearity/Relu_output_0: 3d0cb4ad
(Unnamed Layer* 68) [Constant]_output: 3bf1f24a
(Unnamed Layer* 69) [Shuffle]_output: 3bf1f24a
/0/backbone/stage3/blocks/bottlenecks/bottlenecks.0/Mul_output_0: 3d01c0fc
/0/backbone/stage3/blocks/bottlenecks/bottlenecks.0/Add_output_0: 3d193416
/0/backbone/stage3/blocks/bottlenecks/bottlenecks.1/cv1/rbr_reparam/Conv_output_0: 3d829c82
/0/backbone/stage3/blocks/bottlenecks/bottlenecks.1/cv1/nonlinearity/Relu_output_0: 3d2b5198
/0/backbone/stage3/blocks/bottlenecks/bottlenecks.1/cv2/rbr_reparam/Conv_output_0: 3d349a4b
/0/backbone/stage3/blocks/bottlenecks/bottlenecks.1/cv2/nonlinearity/Relu_output_0: 3d29cedd
(Unnamed Layer* 76) [Constant]_output: 3b4fe5be
(Unnamed Layer* 77) [Shuffle]_output: 3b4fe5be
/0/backbone/stage3/blocks/bottlenecks/bottlenecks.1/Mul_output_0: 3c76d41e
/0/backbone/stage3/blocks/bottlenecks/bottlenecks.1/Add_output_0: 3d096538
/0/backbone/stage3/blocks/bottlenecks/bottlenecks.2/cv1/rbr_reparam/Conv_output_0: 3d5ec682
/0/backbone/stage3/blocks/bottlenecks/bottlenecks.2/cv1/nonlinearity/Relu_output_0: 3d31ea6f
/0/backbone/stage3/blocks/bottlenecks/bottlenecks.2/cv2/rbr_reparam/Conv_output_0: 3d4f5432
/0/backbone/stage3/blocks/bottlenecks/bottlenecks.2/cv2/nonlinearity/Relu_output_0: 3d24e72c
(Unnamed Layer* 84) [Constant]_output: 3bcd8850
(Unnamed Layer* 85) [Shuffle]_output: 3bcd8850
/0/backbone/stage3/blocks/bottlenecks/bottlenecks.2/Mul_output_0: 3cdad783
/0/backbone/stage3/blocks/bottlenecks/bottlenecks.2/Add_output_0: 3d163f73
/0/backbone/stage3/blocks/bottlenecks/bottlenecks.3/cv1/rbr_reparam/Conv_output_0: 3d7f0ff8
/0/backbone/stage3/blocks/bottlenecks/bottlenecks.3/cv1/nonlinearity/Relu_output_0: 3d571a6b
/0/backbone/stage3/blocks/bottlenecks/bottlenecks.3/cv2/rbr_reparam/Conv_output_0: 3d974bf8
/0/backbone/stage3/blocks/bottlenecks/bottlenecks.3/cv2/nonlinearity/Relu_output_0: 3d87b616
(Unnamed Layer* 92) [Constant]_output: 3b5700b3
(Unnamed Layer* 93) [Shuffle]_output: 3b5700b3
/0/backbone/stage3/blocks/bottlenecks/bottlenecks.3/Mul_output_0: 3c7a5702
/0/backbone/stage3/blocks/bottlenecks/bottlenecks.3/Add_output_0: 3d0fcba9
/0/backbone/stage3/blocks/bottlenecks/bottlenecks.4/cv1/rbr_reparam/Conv_output_0: 3da74d15
/0/backbone/stage3/blocks/bottlenecks/bottlenecks.4/cv1/nonlinearity/Relu_output_0: 3d49ed4a
/0/backbone/stage3/blocks/bottlenecks/bottlenecks.4/cv2/rbr_reparam/Conv_output_0: 3dba8a5d
/0/backbone/stage3/blocks/bottlenecks/bottlenecks.4/cv2/nonlinearity/Relu_output_0: 3d98c4bc
(Unnamed Layer* 100) [Constant]_output: 3999361a
(Unnamed Layer* 101) [Shuffle]_output: 3999361a
/0/backbone/stage3/blocks/bottlenecks/bottlenecks.4/Mul_output_0: 3aaabb50
/0/backbone/stage3/blocks/bottlenecks/bottlenecks.4/Add_output_0: 3d4bd2e3
/0/backbone/stage3/blocks/conv2/conv/Conv_output_0: 3d9ea4a0
/0/backbone/stage3/blocks/conv2/act/Relu_output_0: 3d7731d0
/0/backbone/stage3/blocks/Concat_output_0: 3d4bd2e3
/0/backbone/stage3/blocks/conv3/conv/Conv_output_0: 3db479ea
/0/backbone/stage3/blocks/conv3/act/Relu_output_0: 3d879473
/0/backbone/stage4/downsample/rbr_reparam/Conv_output_0: 3d6aec3a
/0/backbone/stage4/downsample/nonlinearity/Relu_output_0: 3d4344fc
/0/backbone/stage4/blocks/conv1/conv/Conv_output_0: 3d6ec492
/0/backbone/stage4/blocks/conv1/act/Relu_output_0: 3d33fe33
/0/backbone/stage4/blocks/bottlenecks/bottlenecks.0/cv1/rbr_reparam/Conv_output_0: 3dbd65f9
/0/backbone/stage4/blocks/bottlenecks/bottlenecks.0/cv1/nonlinearity/Relu_output_0: 3d3c8285
/0/backbone/stage4/blocks/bottlenecks/bottlenecks.0/cv2/rbr_reparam/Conv_output_0: 3d66887d
/0/backbone/stage4/blocks/bottlenecks/bottlenecks.0/cv2/nonlinearity/Relu_output_0: 3d3e4744
(Unnamed Layer* 117) [Constant]_output: 3abfbd69
(Unnamed Layer* 118) [Shuffle]_output: 3abfbd69
/0/backbone/stage4/blocks/bottlenecks/bottlenecks.0/Mul_output_0: 3c05b9da
/0/backbone/stage4/blocks/bottlenecks/bottlenecks.0/Add_output_0: 3d15b8f0
/0/backbone/stage4/blocks/bottlenecks/bottlenecks.1/cv1/rbr_reparam/Conv_output_0: 3d48074b
/0/backbone/stage4/blocks/bottlenecks/bottlenecks.1/cv1/nonlinearity/Relu_output_0: 3d01cfb9
/0/backbone/stage4/blocks/bottlenecks/bottlenecks.1/cv2/rbr_reparam/Conv_output_0: 3d65ad54
/0/backbone/stage4/blocks/bottlenecks/bottlenecks.1/cv2/nonlinearity/Relu_output_0: 3d3d5acf
(Unnamed Layer* 125) [Constant]_output: 3bba8669
(Unnamed Layer* 126) [Shuffle]_output: 3bba8669
/0/backbone/stage4/blocks/bottlenecks/bottlenecks.1/Mul_output_0: 3cd86c12
/0/backbone/stage4/blocks/bottlenecks/bottlenecks.1/Add_output_0: 3d23bdd5
/0/backbone/stage4/blocks/conv2/conv/Conv_output_0: 3d5d3849
/0/backbone/stage4/blocks/conv2/act/Relu_output_0: 3d54a7bd
/0/backbone/stage4/blocks/Concat_output_0: 3d5a4045
/0/backbone/stage4/blocks/conv3/conv/Conv_output_0: 3d77b97d
/0/backbone/stage4/blocks/conv3/act/Relu_output_0: 3d46cb79
/0/backbone/context_module/cv1/conv/Conv_output_0: 3d49a7ab
/0/backbone/context_module/cv1/act/Relu_output_0: 3d484957
/0/backbone/context_module/m.0/MaxPool_output_0: 3d484957
/0/backbone/context_module/m.1/MaxPool_output_0: 3d484957
/0/backbone/context_module/m.2/MaxPool_output_0: 3d484957
/0/backbone/context_module/Concat_output_0: 3d54042b
/0/backbone/context_module/cv2/conv/Conv_output_0: 3dbdd2f0
/0/backbone/context_module/cv2/act/Relu_output_0: 3d05eb61
/0/neck/neck1/reduce_skip1/conv/Conv_output_0: 3d2778fc
/0/neck/neck1/reduce_skip1/act/Relu_output_0: 3cae9e75
/0/neck/neck1/reduce_skip2/conv/Conv_output_0: 3d827919
/0/neck/neck1/reduce_skip2/act/Relu_output_0: 3d2c2809
/0/neck/neck1/downsample/conv/Conv_output_0: 3d31de4e
/0/neck/neck1/downsample/act/Relu_output_0: 3c9367a7
/0/neck/neck1/conv/conv/Conv_output_0: 3db0cfd3
/0/neck/neck1/conv/act/Relu_output_0: 3da77162
/0/neck/neck1/upsample/ConvTranspose_output_0: 3bcb6da5
/0/neck/neck1/Concat_output_0: 3c844955
/0/neck/neck1/reduce_after_concat/conv/Conv_output_0: 3d7fa852
/0/neck/neck1/reduce_after_concat/act/Relu_output_0: 3d4d5460
/0/neck/neck1/blocks/conv1/conv/Conv_output_0: 3d7401a9
/0/neck/neck1/blocks/conv1/act/Relu_output_0: 3d2898f3
/0/neck/neck1/blocks/bottlenecks/bottlenecks.0/cv1/rbr_reparam/Conv_output_0: 3d748a7b
/0/neck/neck1/blocks/bottlenecks/bottlenecks.0/cv1/nonlinearity/Relu_output_0: 3d2ae46a
/0/neck/neck1/blocks/bottlenecks/bottlenecks.0/cv2/rbr_reparam/Conv_output_0: 3d5afac1
/0/neck/neck1/blocks/bottlenecks/bottlenecks.0/cv2/nonlinearity/Relu_output_0: 3d139774
(Unnamed Layer* 160) [Constant]_output: 386cdf69
(Unnamed Layer* 161) [Shuffle]_output: 386cdf69
/0/neck/neck1/blocks/bottlenecks/bottlenecks.0/Mul_output_0: 399abe76
/0/neck/neck1/blocks/bottlenecks/bottlenecks.0/Add_output_0: 3d13b418
/0/neck/neck1/blocks/bottlenecks/bottlenecks.1/cv1/rbr_reparam/Conv_output_0: 3d4abf48
/0/neck/neck1/blocks/bottlenecks/bottlenecks.1/cv1/nonlinearity/Relu_output_0: 3cfa4df7
/0/neck/neck1/blocks/bottlenecks/bottlenecks.1/cv2/rbr_reparam/Conv_output_0: 3d4701b5
/0/neck/neck1/blocks/bottlenecks/bottlenecks.1/cv2/nonlinearity/Relu_output_0: 3d3366e5
(Unnamed Layer* 168) [Constant]_output: 3b87499a
(Unnamed Layer* 169) [Shuffle]_output: 3b87499a
/0/neck/neck1/blocks/bottlenecks/bottlenecks.1/Mul_output_0: 3c9adaf9
/0/neck/neck1/blocks/bottlenecks/bottlenecks.1/Add_output_0: 3d3cb25d
/0/neck/neck1/blocks/conv2/conv/Conv_output_0: 3d630629
/0/neck/neck1/blocks/conv2/act/Relu_output_0: 3d295cb3
/0/neck/neck1/blocks/Concat_output_0: 3d3cb25d
/0/neck/neck1/blocks/conv3/conv/Conv_output_0: 3d6e57bc
/0/neck/neck1/blocks/conv3/act/Relu_output_0: 3d66acc4
/0/neck/neck2/reduce_skip1/conv/Conv_output_0: 3d637b03
/0/neck/neck2/reduce_skip1/act/Relu_output_0: 3c856186
/0/neck/neck2/reduce_skip2/conv/Conv_output_0: 3da192f7
/0/neck/neck2/reduce_skip2/act/Relu_output_0: 3d3a50cf
/0/neck/neck2/downsample/conv/Conv_output_0: 3d4afc6d
/0/neck/neck2/downsample/act/Relu_output_0: 3cc53dcd
/0/neck/neck2/conv/conv/Conv_output_0: 3d8acf56
/0/neck/neck2/conv/act/Relu_output_0: 3d8cee69
/0/neck/neck2/upsample/ConvTranspose_output_0: 3bde8950
/0/neck/neck2/Concat_output_0: 3ca47fe3
/0/neck/neck2/reduce_after_concat/conv/Conv_output_0: 3d8958ad
/0/neck/neck2/reduce_after_concat/act/Relu_output_0: 3d30a131
/0/neck/neck2/blocks/conv1/conv/Conv_output_0: 3d0a6818
/0/neck/neck2/blocks/conv1/act/Relu_output_0: 3cc964c2
/0/neck/neck2/blocks/bottlenecks/bottlenecks.0/cv1/rbr_reparam/Conv_output_0: 3d283e67
/0/neck/neck2/blocks/bottlenecks/bottlenecks.0/cv1/nonlinearity/Relu_output_0: 3cf9278b
/0/neck/neck2/blocks/bottlenecks/bottlenecks.0/cv2/rbr_reparam/Conv_output_0: 3d18efce
/0/neck/neck2/blocks/bottlenecks/bottlenecks.0/cv2/nonlinearity/Relu_output_0: 3cf4ec95
(Unnamed Layer* 195) [Constant]_output: 3a33a265
(Unnamed Layer* 196) [Shuffle]_output: 3a33a265
/0/neck/neck2/blocks/bottlenecks/bottlenecks.0/Mul_output_0: 3b0c2dcf
/0/neck/neck2/blocks/bottlenecks/bottlenecks.0/Add_output_0: 3cafb993
/0/neck/neck2/blocks/bottlenecks/bottlenecks.1/cv1/rbr_reparam/Conv_output_0: 3d310888
/0/neck/neck2/blocks/bottlenecks/bottlenecks.1/cv1/nonlinearity/Relu_output_0: 3d057294
/0/neck/neck2/blocks/bottlenecks/bottlenecks.1/cv2/rbr_reparam/Conv_output_0: 3d3993ac
/0/neck/neck2/blocks/bottlenecks/bottlenecks.1/cv2/nonlinearity/Relu_output_0: 3d07770b
(Unnamed Layer* 203) [Constant]_output: 3953f61c
(Unnamed Layer* 204) [Shuffle]_output: 3953f61c
/0/neck/neck2/blocks/bottlenecks/bottlenecks.1/Mul_output_0: 3a1052e1
/0/neck/neck2/blocks/bottlenecks/bottlenecks.1/Add_output_0: 3c9917ce
/0/neck/neck2/blocks/bottlenecks/bottlenecks.2/cv1/rbr_reparam/Conv_output_0: 3d307ee0
/0/neck/neck2/blocks/bottlenecks/bottlenecks.2/cv1/nonlinearity/Relu_output_0: 3ce2fe3a
/0/neck/neck2/blocks/bottlenecks/bottlenecks.2/cv2/rbr_reparam/Conv_output_0: 3d5d166e
/0/neck/neck2/blocks/bottlenecks/bottlenecks.2/cv2/nonlinearity/Relu_output_0: 3d442309
(Unnamed Layer* 211) [Constant]_output: 3b1c6922
(Unnamed Layer* 212) [Shuffle]_output: 3b1c6922
/0/neck/neck2/blocks/bottlenecks/bottlenecks.2/Mul_output_0: 3bb99103
/0/neck/neck2/blocks/bottlenecks/bottlenecks.2/Add_output_0: 3d1a06e3
/0/neck/neck2/blocks/conv2/conv/Conv_output_0: 3d60b16f
/0/neck/neck2/blocks/conv2/act/Relu_output_0: 3d21d845
/0/neck/neck2/blocks/Concat_output_0: 3d1a06e3
/0/neck/neck2/blocks/conv3/conv/Conv_output_0: 3d7affe8
/0/neck/neck2/blocks/conv3/act/Relu_output_0: 3d5ff84a
/0/neck/neck3/conv/conv/Conv_output_0: 3db91925
/0/neck/neck3/conv/act/Relu_output_0: 3db36a20
/0/neck/neck3/Concat_output_0: 3d976007
/0/neck/neck3/blocks/conv1/conv/Conv_output_0: 3d5e4a75
/0/neck/neck3/blocks/conv1/act/Relu_output_0: 3d28dcf9
/0/neck/neck3/blocks/bottlenecks/bottlenecks.0/cv1/conv/Conv_output_0: 3d4d8a25
/0/neck/neck3/blocks/bottlenecks/bottlenecks.0/cv1/act/Relu_output_0: 3d02f6ee
/0/neck/neck3/blocks/bottlenecks/bottlenecks.0/cv2/conv/Conv_output_0: 3d66ba6e
/0/neck/neck3/blocks/bottlenecks/bottlenecks.0/cv2/act/Relu_output_0: 3d3ce377
(Unnamed Layer* 229) [Constant]_output: 390724fe
(Unnamed Layer* 230) [Shuffle]_output: 390724fe
/0/neck/neck3/blocks/bottlenecks/bottlenecks.0/Mul_output_0: 3a30da3a
/0/neck/neck3/blocks/bottlenecks/bottlenecks.0/Add_output_0: 3c7b9e92
/0/neck/neck3/blocks/bottlenecks/bottlenecks.1/cv1/conv/Conv_output_0: 3d7d3197
/0/neck/neck3/blocks/bottlenecks/bottlenecks.1/cv1/act/Relu_output_0: 3d292a13
/0/neck/neck3/blocks/bottlenecks/bottlenecks.1/cv2/conv/Conv_output_0: 3d92a6a2
/0/neck/neck3/blocks/bottlenecks/bottlenecks.1/cv2/act/Relu_output_0: 3d49912c
(Unnamed Layer* 237) [Constant]_output: 3ac0983e
(Unnamed Layer* 238) [Shuffle]_output: 3ac0983e
/0/neck/neck3/blocks/bottlenecks/bottlenecks.1/Mul_output_0: 3b3bc63b
/0/neck/neck3/blocks/bottlenecks/bottlenecks.1/Add_output_0: 3d1b2283
/0/neck/neck3/blocks/conv2/conv/Conv_output_0: 3d481cf2
/0/neck/neck3/blocks/conv2/act/Relu_output_0: 3d273f6a
/0/neck/neck3/blocks/Concat_output_0: 3d248eac
/0/neck/neck3/blocks/conv3/conv/Conv_output_0: 3d7c4bac
/0/neck/neck3/blocks/conv3/act/Relu_output_0: 3d40c3a2
/0/neck/neck4/conv/conv/Conv_output_0: 3dbce1ab
/0/neck/neck4/conv/act/Relu_output_0: 3da8e8f6
/0/neck/neck4/Concat_output_0: 3da76719
/0/neck/neck4/blocks/conv1/conv/Conv_output_0: 3d599a05
/0/neck/neck4/blocks/conv1/act/Relu_output_0: 3d5d7b1f
/0/neck/neck4/blocks/bottlenecks/bottlenecks.0/cv1/conv/Conv_output_0: 3d309200
/0/neck/neck4/blocks/bottlenecks/bottlenecks.0/cv1/act/Relu_output_0: 3d11139d
/0/neck/neck4/blocks/bottlenecks/bottlenecks.0/cv2/conv/Conv_output_0: 3d1e7fe9
/0/neck/neck4/blocks/bottlenecks/bottlenecks.0/cv2/act/Relu_output_0: 3d0aae59
(Unnamed Layer* 255) [Constant]_output: 3b2928d2
(Unnamed Layer* 256) [Shuffle]_output: 3b2928d2
/0/neck/neck4/blocks/bottlenecks/bottlenecks.0/Mul_output_0: 3c912bd3
/0/neck/neck4/blocks/bottlenecks/bottlenecks.0/Add_output_0: 3cf538e4
/0/neck/neck4/blocks/bottlenecks/bottlenecks.1/cv1/conv/Conv_output_0: 3d46fd58
/0/neck/neck4/blocks/bottlenecks/bottlenecks.1/cv1/act/Relu_output_0: 3d264ce2
/0/neck/neck4/blocks/bottlenecks/bottlenecks.1/cv2/conv/Conv_output_0: 3d73d04f
/0/neck/neck4/blocks/bottlenecks/bottlenecks.1/cv2/act/Relu_output_0: 3d727fae
(Unnamed Layer* 263) [Constant]_output: 39e4064c
(Unnamed Layer* 264) [Shuffle]_output: 39e4064c
/0/neck/neck4/blocks/bottlenecks/bottlenecks.1/Mul_output_0: 3ad8aa4e
/0/neck/neck4/blocks/bottlenecks/bottlenecks.1/Add_output_0: 3ce0a329
/0/neck/neck4/blocks/bottlenecks/bottlenecks.2/cv1/conv/Conv_output_0: 3d6dc400
/0/neck/neck4/blocks/bottlenecks/bottlenecks.2/cv1/act/Relu_output_0: 3d3e73ca
/0/neck/neck4/blocks/bottlenecks/bottlenecks.2/cv2/conv/Conv_output_0: 3d574254
/0/neck/neck4/blocks/bottlenecks/bottlenecks.2/cv2/act/Relu_output_0: 3d5381ea
(Unnamed Layer* 271) [Constant]_output: 3b5a068b
(Unnamed Layer* 272) [Shuffle]_output: 3b5a068b
/0/neck/neck4/blocks/bottlenecks/bottlenecks.2/Mul_output_0: 3c3dc631
/0/neck/neck4/blocks/bottlenecks/bottlenecks.2/Add_output_0: 3caae81e
/0/neck/neck4/blocks/conv2/conv/Conv_output_0: 3d3e27cc
/0/neck/neck4/blocks/conv2/act/Relu_output_0: 3d35e579
/0/neck/neck4/blocks/Concat_output_0: 3d173845
/0/neck/neck4/blocks/conv3/conv/Conv_output_0: 3d5a8347
/0/neck/neck4/blocks/conv3/act/Relu_output_0: 3d3879e3
/0/heads/head1/stem/seq/conv/Conv_output_0: 3d8d9846
/0/heads/head1/stem/seq/act/Relu_output_0: 3d79f035
/0/heads/head1/cls_convs/cls_convs.0/seq/conv/Conv_output_0: 3e1416eb
/0/heads/head1/cls_convs/cls_convs.0/seq/act/Relu_output_0: 3e1416eb
/0/heads/head1/cls_pred/Conv_output_0: 3da6d328
/0/heads/head1/reg_convs/reg_convs.0/seq/conv/Conv_output_0: 3e772170
/0/heads/head1/reg_convs/reg_convs.0/seq/act/Relu_output_0: 3e865397
/0/heads/head1/reg_pred/Conv_output_0: 3ddb3eb0
/0/heads/Reshape_output_0: 3ddb3eb0
/0/heads/Transpose_output_0: 3ddb3eb0
(Unnamed Layer* 305) [Softmax]_output: 3bb61e3c
/0/heads/Conv_output_0: 3de4c4e9
/0/heads/Squeeze_output_0: 3de4c4e9
/0/heads/Reshape_1_output_0: 3da6d328
/0/heads/head2/stem/seq/conv/Conv_output_0: 3d62d05d
/0/heads/head2/stem/seq/act/Relu_output_0: 3d5a5406
/0/heads/head2/cls_convs/cls_convs.0/seq/conv/Conv_output_0: 3e081539
/0/heads/head2/cls_convs/cls_convs.0/seq/act/Relu_output_0: 3e116945
/0/heads/head2/cls_pred/Conv_output_0: 3d950bdd
/0/heads/head2/reg_convs/reg_convs.0/seq/conv/Conv_output_0: 3e617bc4
/0/heads/head2/reg_convs/reg_convs.0/seq/act/Relu_output_0: 3e722b33
/0/heads/head2/reg_pred/Conv_output_0: 3dcf8a26
/0/heads/Reshape_2_output_0: 3dcf8a26
/0/heads/Transpose_1_output_0: 3dcf8a26
(Unnamed Layer* 343) [Softmax]_output: 3bd2476c
/0/heads/Conv_1_output_0: 3dfa32ae
/0/heads/Squeeze_1_output_0: 3dfa32ae
/0/heads/Reshape_3_output_0: 3d950bdd
/0/heads/head3/stem/seq/conv/Conv_output_0: 3d60dd77
/0/heads/head3/stem/seq/act/Relu_output_0: 3d67362f
/0/heads/head3/cls_convs/cls_convs.0/seq/conv/Conv_output_0: 3dcd0624
/0/heads/head3/cls_convs/cls_convs.0/seq/act/Relu_output_0: 3dcd8d97
/0/heads/head3/cls_pred/Conv_output_0: 3d818dad
/0/heads/head3/reg_convs/reg_convs.0/seq/conv/Conv_output_0: 3e281cde
/0/heads/head3/reg_convs/reg_convs.0/seq/act/Relu_output_0: 3e4564fa
/0/heads/head3/reg_pred/Conv_output_0: 3dc11fde
/0/heads/Reshape_4_output_0: 3dc11fde
/0/heads/Transpose_2_output_0: 3dc11fde
(Unnamed Layer* 381) [Softmax]_output: 3bd210d6
/0/heads/Conv_2_output_0: 3de74a9b
/0/heads/Squeeze_2_output_0: 3de74a9b
/0/heads/Reshape_5_output_0: 3d818dad
/0/heads/Concat_6_output_0: 3da6d328
/0/heads/Transpose_3_output_0: 3da6d328
/0/heads/Concat_7_output_0: 3de7a1b3
/0/heads/Range_output_0: 3f1f4871
(Unnamed Layer* 414) [Shuffle]_output: 3c010a14
(Unnamed Layer* 416) [Shuffle]_output: 3b810a14
/0/heads/Add_output_0: 3f204a85
/0/heads/Range_1_output_0: 3f1f4871
(Unnamed Layer* 429) [Shuffle]_output: 3c010a14
(Unnamed Layer* 431) [Shuffle]_output: 3b810a14
/0/heads/Add_1_output_0: 3f204a85
/0/heads/Reshape_8_output_0: 3f204a85
/0/heads/Expand_output_0: 3f204a85
/0/heads/Reshape_9_output_0: 3f204a85
/0/heads/Expand_1_output_0: 3f204a85
/0/heads/Unsqueeze_9_output_0: 3f204a85
/0/heads/Unsqueeze_10_output_0: 3f204a85
/0/heads/Concat_11_output_0: 3f204a85
/0/heads/Cast_2_output_0: 3f204a85
/0/heads/Reshape_10_output_0: 3f204a85
(Unnamed Layer* 467) [Constant]_output: 3d810a14
(Unnamed Layer* 468) [Shuffle]_output: 3d810a14
/0/heads/ConstantOfShape_output_0: 3d810a14
/0/heads/Range_2_output_0: 3e9d4449
(Unnamed Layer* 487) [Shuffle]_output: 3c010a14
(Unnamed Layer* 489) [Shuffle]_output: 3b810a14
/0/heads/Add_2_output_0: 3e9f4871
/0/heads/Range_3_output_0: 3e9d4449
(Unnamed Layer* 502) [Shuffle]_output: 3c010a14
(Unnamed Layer* 504) [Shuffle]_output: 3b810a14
/0/heads/Add_3_output_0: 3e9f4871
/0/heads/Reshape_13_output_0: 3e9f4871
/0/heads/Expand_2_output_0: 3e9f4871
/0/heads/Reshape_14_output_0: 3e9f4871
/0/heads/Expand_3_output_0: 3e9f4871
/0/heads/Unsqueeze_12_output_0: 3e9f4871
/0/heads/Unsqueeze_13_output_0: 3e9f4871
/0/heads/Concat_16_output_0: 3e9f4871
/0/heads/Cast_5_output_0: 3e9f4871
/0/heads/Reshape_15_output_0: 3e9f4871
(Unnamed Layer* 540) [Constant]_output: 3e010a14
(Unnamed Layer* 541) [Shuffle]_output: 3e010a14
/0/heads/ConstantOfShape_1_output_0: 3e010a14
/0/heads/Range_4_output_0: 3e193bf8
(Unnamed Layer* 560) [Shuffle]_output: 3c010a14
(Unnamed Layer* 562) [Shuffle]_output: 3b810a14
/0/heads/Add_4_output_0: 3e1d4449
/0/heads/Range_5_output_0: 3e193bf8
(Unnamed Layer* 575) [Shuffle]_output: 3c010a14
(Unnamed Layer* 577) [Shuffle]_output: 3b810a14
/0/heads/Add_5_output_0: 3e1d4449
/0/heads/Reshape_18_output_0: 3e1d4449
/0/heads/Expand_4_output_0: 3e1d4449
/0/heads/Reshape_19_output_0: 3e1d4449
/0/heads/Expand_5_output_0: 3e1d4449
/0/heads/Unsqueeze_15_output_0: 3e1d4449
/0/heads/Unsqueeze_16_output_0: 3e1d4449
/0/heads/Concat_21_output_0: 3e1d4449
/0/heads/Cast_8_output_0: 3e1d4449
/0/heads/Reshape_20_output_0: 3e1d4449
(Unnamed Layer* 613) [Constant]_output: 3e810a14
(Unnamed Layer* 614) [Shuffle]_output: 3e810a14
/0/heads/ConstantOfShape_2_output_0: 3e810a14
/0/heads/Concat_23_output_0: 3f204a85
/0/heads/Concat_24_output_0: 3e810a14
/0/heads/Sigmoid_output_0: 3a818465
/0/heads/Split_output_0: 3dfade7a
/0/heads/Split_output_1: 3de77e07
(Unnamed Layer* 629) [Shuffle]_output: 3f204a85
/0/heads/Sub_output_0: 3f1f41da
(Unnamed Layer* 631) [Shuffle]_output: 3f204a85
/0/heads/Add_6_output_0: 3f21bff8
/0/heads/Concat_25_output_0: 3f21bff8
(Unnamed Layer* 634) [Shuffle]_output: 3e810a14
/0/heads/Mul_6_output_0: 40a1d25e
/1/ReduceMax_output_0: 3ab6a705
(Unnamed Layer* 637) [TopK]_output: 3ab6a705
/1/Cast_output_0: 3f7ece1c
output: 40a1d25e
